<pad>	0
<unk>	0
<bos>	0
<eos>	0
▁t	-0
he	-1
▁a	-2
▁the	-3
in	-4
re	-5
▁s	-6
▁o	-7
▁w	-8
nd	-9
is	-10
▁c	-11
at	-12
er	-13
▁b	-14
le	-15
or	-16
▁f	-17
ou	-18
on	-19
▁and	-20
it	-21
en	-22
▁th	-23
▁m	-24
es	-25
▁p	-26
an	-27
▁to	-28
▁d	-29
▁h	-30
▁of	-31
ing	-32
▁in	-33
ar	-34
al	-35
ed	-36
▁n	-37
ic	-38
ow	-39
as	-40
om	-41
▁"	-42
ll	-43
▁is	-44
▁u	-45
▁I	-46
▁T	-47
ut	-48
et	-49
ot	-50
ion	-51
ve	-52
▁l	-53
▁S	-54
▁on	-55
▁y	-56
ct	-57
▁g	-58
."	-59
▁e	-60
se	-61
▁be	-62
▁he	-63
ay	-64
ent	-65
am	-66
im	-67
od	-68
▁that	-69
st	-70
▁wh	-71
nt	-72
▁you	-73
▁re	-74
▁se	-75
▁we	-76
ac	-77
▁for	-78
▁A	-79
▁ha	-80
ith	-81
id	-82
▁C	-83
ill	-84
▁this	-85
il	-86
ro	-87
▁are	-88
ur	-89
▁st	-90
ig	-91
▁as	-92
▁sh	-93
▁The	-94
▁us	-95
▁W	-96
▁with	-97
her	-98
▁le	-99
▁will	-100
ad	-101
ir	-102
▁it	-103
ag	-104
pe	-105
▁L	-106
ld	-107
▁an	-108
▁N	-109
▁not	-110
ver	-111
▁P	-112
ly	-113
if	-114
ce	-115
▁com	-116
▁have	-117
ht	-118
▁B	-119
us	-120
lic	-121
▁G	-122
ial	-123
ke	-124
▁fr	-125
ain	-126
ation	-127
▁M	-128
▁r	-129
▁all	-130
▁can	-131
ile	-132
ab	-133
▁F	-134
ch	-135
▁de	-136
ame	-137
ul	-138
▁v	-139
▁him	-140
ate	-141
ore	-142
lick	-143
ich	-144
▁unt	-145
ok	-146
um	-147
ol	-148
pt	-149
▁H	-150
ers	-151
▁ch	-152
▁by	-153
all	-154
▁or	-155
▁unto	-156
ord	-157
▁from	-158
th	-159
ight	-160
▁which	-161
ra	-162
ss	-163
ess	-164
And	-165
qu	-166
▁sa	-167
age	-168
hen	-169
▁We	-170
▁k	-171
▁al	-172
ment	-173
est	-174
and	-175
orial	-176
▁them	-177
utorial	-178
▁ex	-179
▁D	-180
▁me	-181
ple	-182
▁Th	-183
▁at	-184
▁ne	-185
▁see	-186
▁O	-187
▁E	-188
▁J	-189
ri	-190
ter	-191
▁con	-192
ere	-193
▁pro	-194
ant	-195
iv	-196
ist	-197
▁they	-198
ie	-199
lo	-200
un	-201
so	-202
our	-203
▁do	-204
ath	-205
em	-206
ace	-207
▁sp	-208
ud	-209
▁but	-210
▁who	-211
▁R	-212
▁go	-213
▁man	-214
▁ye	-215
▁Y	-216
lect	-217
▁your	-218
ect	-219
eth	-220
ure	-221
▁dis	-222
▁In	-223
▁Now	-224
▁was	-225
ome	-226
▁lo	-227
art	-228
▁ab	-229
ine	-230
▁br	-231
ive	-232
▁one	-233
ype	-234
▁fo	-235
▁tutorial	-236
ang	-237
ind	-238
own	-239
▁there	-240
pl	-241
▁pr	-242
xt	-243
▁his	-244
av	-245
ack	-246
able	-247
ak	-248
▁click	-249
led	-250
el	-251
▁shall	-252
▁su	-253
▁has	-254
▁Let	-255
▁int	-256
ould	-257
▁This	-258
ire	-259
▁also	-260
▁up	-261
▁out	-262
▁pre	-263
▁our	-264
ings	-265
ard	-266
▁file	-267
ail	-268
▁God	-269
▁1	-270
▁wor	-271
▁when	-272
▁here	-273
ari	-274
▁pl	-275
rou	-276
ass	-277
▁kn	-278
out	-279
ase	-280
ction	-281
▁im	-282
are	-283
pp	-284
ide	-285
og	-286
▁select	-287
ake	-288
▁type	-289
ous	-290
reat	-291
▁You	-292
ose	-293
ast	-294
ort	-295
▁te	-296
fore	-297
▁tw	-298
ck	-299
▁K	-300
ult	-301
▁say	-302
cc	-303
ice	-304
ther	-305
▁bo	-306
▁And	-307
▁comm	-308
▁so	-309
▁ad	-310
▁said	-311
▁Ch	-312
ject	-313
ption	-314
ite	-315
▁So	-316
▁two	-317
ust	-318
▁into	-319
op	-320
ows	-321
▁It	-322
ue	-323
▁am	-324
▁op	-325
▁now	-326
ong	-327
▁j	-328
▁To	-329
▁let	-330
int	-331
▁should	-332
▁'	-333
oken	-334
play	-335
ans	-336
▁if	-337
..	-338
one	-339
▁Click	-340
ep	-341
▁thou	-342
ip	-343
▁ar	-344
▁mo	-345
▁tr	-346
here	-347
▁cl	-348
ana	-349
sh	-350
ies	-351
other	-352
▁name	-353
▁these	-354
▁V	-355
▁right	-356
▁(	-357
ne	-358
ink	-359
▁li	-360
very	-361
ond	-362
▁Wh	-363
umb	-364
▁ag	-365
▁lear	-366
au	-367
▁U	-368
irst	-369
ount	-370
▁any	-371
▁display	-372
ness	-373
▁get	-374
▁their	-375
esus	-376
▁then	-377
▁fe	-378
▁other	-379
▁2	-380
ity	-381
▁no	-382
▁using	-383
▁my	-384
▁po	-385
▁bec	-386
▁know	-387
orm	-388
ory	-389
ise	-390
▁option	-391
ign	-392
ens	-393
▁cont	-394
▁St	-395
▁Jesus	-396
oth	-397
▁about	-398
ild	-399
gh	-400
ish	-401
sel	-402
iz	-403
▁cal	-404
▁things	-405
▁qu	-406
▁were	-407
▁how	-408
▁per	-409
ach	-410
put	-411
▁col	-412
ble	-413
▁Lord	-414
▁chang	-415
ha	-416
▁may	-417
▁vari	-418
ru	-419
▁add	-420
▁had	-421
▁come	-422
▁command	-423
fter	-424
▁bre	-425
▁back	-426
▁ob	-427
fere	-428
ave	-429
▁day	-430
▁what	-431
▁again	-432
llow	-433
▁new	-434
▁first	-435
▁wr	-436
ause	-437
▁more	-438
ft	-439
ks	-440
oy	-441
ram	-442
ound	-443
▁ent	-444
▁down	-445
ody	-446
ved	-447
▁ke	-448
ght	-449
les	-450
ance	-451
ater	-452
ethod	-453
ert	-454
▁use	-455
▁like	-456
▁res	-457
▁some	-458
ree	-459
ence	-460
▁tim	-461
▁pe	-462
▁body	-463
nder	-464
▁For	-465
ather	-466
▁space	-467
nter	-468
ress	-469
▁hand	-470
cl	-471
▁One	-472
reate	-473
▁butt	-474
ff	-475
ary	-476
▁sc	-477
rough	-478
For	-479
▁learn	-480
▁method	-481
▁He	-482
form	-483
▁giv	-484
▁great	-485
▁follow	-486
ode	-487
ield	-488
▁val	-489
ition	-490
▁numb	-491
▁called	-492
ren	-493
▁If	-494
▁spe	-495
ven	-496
▁Se	-497
ry	-498
▁3	-499
▁men	-500
▁page	-501
▁same	-502
hes	-503
▁ap	-504
▁bel	-505
▁ser	-506
▁through	-507
▁Here	-508
ents	-509
lease	-510
▁Sp	-511
▁word	-512
ci	-513
▁-	-514
But	-515
▁sl	-516
▁press	-517
itt	-518
▁rec	-519
▁part	-520
ge	-521
hed	-522
▁acc	-523
▁set	-524
▁button	-525
,"	-526
yp	-527
▁ear	-528
ap	-529
ract	-530
▁form	-531
ves	-532
▁gr	-533
:"	-534
ec	-535
ove	-536
▁Enter	-537
min	-538
up	-539
old	-540
ered	-541
ical	-542
▁dif	-543
▁lay	-544
▁hath	-545
▁wind	-546
▁class	-547
▁prog	-548
te	-549
▁“	-550
ade	-551
▁good	-552
▁many	-553
▁before	-554
ont	-555
▁used	-556
▁work	-557
▁every	-558
▁field	-559
▁Boy	-560
▁che	-561
▁time	-562
urn	-563
▁un	-564
ated	-565
rist	-566
▁inst	-567
▁only	-568
▁open	-569
▁because	-570
▁en	-571
▁left	-572
▁line	-573
The	-574
act	-575
ants	-576
▁aw	-577
▁def	-578
▁thee	-579
▁image	-580
▁Christ	-581
sion	-582
etail	-583
ments	-584
▁stud	-585
▁program	-586
?"	-587
▁Ne	-588
ower	-589
▁both	-590
ull	-591
▁rem	-592
▁give	-593
▁want	-594
▁bl	-595
▁des	-596
▁Then	-597
▁came	-598
▁comp	-599
▁under	-600
▁differe	-601
▁ey	-602
▁sy	-603
▁imp	-604
▁thy	-605
▁text	-606
▁number	-607
ama	-608
get	-609
▁print	-610
▁ass	-611
▁ind	-612
▁way	-613
ople	-614
▁box	-615
▁her	-616
round	-617
▁than	-618
▁after	-619
▁where	-620
ox	-621
ote	-622
self	-623
▁bet	-624
▁change	-625
lp	-626
ars	-627
ash	-628
▁create	-629
we	-630
per	-631
▁pass	-632
ah	-633
ife	-634
etails	-635
▁variable	-636
os	-637
ruct	-638
▁window	-639
▁help	-640
▁make	-641
▁displays	-642
ms	-643
ood	-644
ors	-645
ward	-646
▁dot	-647
▁ver	-648
stem	-649
▁link	-650
br	-651
wn	-652
ook	-653
▁cur	-654
▁web	-655
▁been	-656
▁dire	-657
rib	-658
▁la	-659
load	-660
▁look	-661
▁need	-662
▁tool	-663
▁belie	-664
▁people	-665
ful	-666
read	-667
ample	-668
▁over	-669
▁saying	-670
▁different	-671
ute	-672
▁As	-673
▁she	-674
▁layer	-675
▁object	-676
▁output	-677
rop	-678
▁spoken	-679
▁av	-680
ving	-681
▁end	-682
▁fun	-683
▁key	-684
▁These	-685
▁creat	-686
▁Tutorial	-687
ces	-688
ied	-689
▁Sh	-690
edit	-691
▁What	-692
▁water	-693
▁Spoken	-694
ost	-695
▁sm	-696
▁appe	-697
▁whom	-698
▁There	-699
▁record	-700
li	-701
aint	-702
▁another	-703
ray	-704
▁ro	-705
arch	-706
cess	-707
▁sub	-708
▁tab	-709
▁food	-710
▁details	-711
ax	-712
sw	-713
▁5	-714
▁Ad	-715
▁Go	-716
▁equ	-717
▁cour	-718
▁check	-719
▁assign	-720
▁et	-721
ates	-722
▁made	-723
ya	-724
ott	-725
ues	-726
▁Pr	-727
▁min	-728
▁own	-729
ature	-730
▁head	-731
▁please	-732
ia	-733
▁Ar	-734
ions	-735
ning	-736
▁top	-737
▁Type	-738
▁pract	-739
▁those	-740
▁following	-741
ale	-742
gin	-743
ault	-744
ither	-745
▁cond	-746
▁start	-747
▁while	-748
ailable	-749
ally	-750
▁cle	-751
▁sim	-752
▁str	-753
▁next	-754
▁user	-755
▁value	-756
ark	-757
ouse	-758
ought	-759
--	-760
00	-761
;"	-762
na	-763
▁‘	-764
ata	-765
odu	-766
ages	-767
▁blo	-768
▁Next	-769
▁answ	-770
▁mult	-771
▁state	-772
▁function	-773
▁available	-774
▁i	-775
alk	-776
ize	-777
row	-778
ser	-779
▁em	-780
▁cor	-781
▁done	-782
▁less	-783
▁move	-784
▁rece	-785
▁went	-786
▁equal	-787
▁direct	-788
▁4	-789
....	-790
▁Pro	-791
▁mus	-792
▁sin	-793
▁code	-794
▁even	-795
▁exec	-796
dom	-797
ify	-798
its	-799
▁dr	-800
▁list	-801
ations	-802
▁enter	-803
▁world	-804
▁breath	-805
cre	-806
har	-807
Then	-808
ever	-809
▁Ind	-810
▁par	-811
▁tak	-812
acket	-813
▁must	-814
▁side	-815
▁given	-816
▁write	-817
bu	-818
err	-819
▁gl	-820
ible	-821
▁nam	-822
▁Save	-823
▁book	-824
▁example	-825
gan	-826
ons	-827
aven	-828
ines	-829
▁dev	-830
▁rel	-831
acher	-832
▁prom	-833
ef	-834
ew	-835
ph	-836
als	-837
ava	-838
▁Fr	-839
▁fa	-840
▁fl	-841
itch	-842
oice	-843
side	-844
tern	-845
ween	-846
▁leg	-847
▁child	-848
▁files	-849
▁import	-850
▁bracket	-851
▁.	-852
ask	-853
▁But	-854
▁life	-855
▁mind	-856
▁read	-857
▁disci	-858
▁speak	-859
▁Select	-860
▁between	-861
0.	-862
inu	-863
▁1.	-864
▁Te	-865
pect	-866
▁app	-867
▁eat	-868
▁etc	-869
▁ret	-870
▁typ	-871
▁king	-872
▁take	-873
▁power	-874
▁shown	-875
▁therefore	-876
▁Sy	-877
▁ic	-878
irit	-879
▁clo	-880
▁run	-881
▁They	-882
▁bott	-883
▁saith	-884
sp	-885
come	-886
less	-887
▁ang	-888
▁err	-889
ialog	-890
▁menu	-891
▁might	-892
▁Father	-893
▁inform	-894
▁default	-895
Th	-896
ner	-897
raw	-898
▁bar	-899
▁off	-900
▁tem	-901
▁test	-902
▁found	-903
▁place	-904
▁plants	-905
nce	-906
▁ra	-907
▁Man	-908
▁did	-909
▁char	-910
▁very	-911
▁earth	-912
▁think	-913
oga	-914
red	-915
▁Ex	-916
oose	-917
▁vis	-918
▁such	-919
▁upon	-920
▁Press	-921
▁faith	-922
▁comple	-923
▁heaven	-924
▁project	-925
ix	-926
ub	-927
ick	-928
ush	-929
▁Bh	-930
hold	-931
ific	-932
ples	-933
▁put	-934
asana	-935
ermin	-936
▁prop	-937
▁const	-938
▁quest	-939
▁would	-940
▁course	-941
▁within	-942
Wh	-943
ted	-944
▁sw	-945
ared	-946
▁bas	-947
▁dou	-948
▁pat	-949
▁requ	-950
▁sent	-951
gether	-952
▁hands	-953
▁means	-954
▁process	-955
▁together	-956
▁assignment	-957
▁information	-958
igh	-959
uth	-960
▁3.	-961
ains	-962
reen	-963
ular	-964
▁its	-965
▁each	-966
▁bottom	-967
▁colour	-968
▁section	-969
mb	-970
ange	-971
cond	-972
ener	-973
▁rep	-974
brary	-975
▁dialog	-976
▁against	-977
▁created	-978
▁•	-979
eous	-980
▁law	-981
▁eyes	-982
▁love	-983
▁main	-984
▁learnt	-985
ma	-986
tr	-987
ank	-988
▁An	-989
▁Be	-990
▁att	-991
lcome	-992
▁cert	-993
▁edit	-994
▁oper	-995
▁supp	-996
ee	-997
hal	-998
ird	-999
▁pri	-1000
▁drop	-1001
▁show	-1002
selves	-1003
▁array	-1004
▁being	-1005
▁heart	-1006
▁house	-1007
oc	-1008
ily	-1009
▁2.	-1010
▁Li	-1011
▁Re	-1012
▁expl	-1013
▁long	-1014
▁sing	-1015
essage	-1016
▁gives	-1017
▁heard	-1018
▁small	-1019
▁return	-1020
▁various	-1021
▁selected	-1022
▁tutorials	-1023
In	-1024
ger	-1025
rit	-1026
▁bu	-1027
▁Son	-1028
▁ele	-1029
▁play	-1030
▁sequ	-1031
▁above	-1032
▁system	-1033
▁options	-1034
▁without	-1035
ntu	-1036
str	-1037
eter	-1038
ides	-1039
ting	-1040
▁fru	-1041
▁red	-1042
buntu	-1043
▁File	-1044
▁fold	-1045
▁icon	-1046
▁color	-1047
▁inter	-1048
erminal	-1049
▁values	-1050
▁Welcome	-1051
▁disciples	-1052
ara	-1053
▁co	-1054
atch	-1055
inux	-1056
ious	-1057
word	-1058
▁sum	-1059
ffect	-1060
ution	-1061
▁away	-1062
▁among	-1063
▁error	-1064
▁choose	-1065
▁mother	-1066
▁second	-1067
▁displayed	-1068
apt	-1069
der	-1070
fox	-1071
vel	-1072
▁De	-1073
▁ev	-1074
atic	-1075
inal	-1076
▁reg	-1077
ready	-1078
▁data	-1079
▁serv	-1080
irefox	-1081
ission	-1082
▁Linux	-1083
▁begin	-1084
▁opens	-1085
▁three	-1086
▁Ubuntu	-1087
▁version	-1088
▁children	-1089
▁condition	-1090
alt	-1091
ced	-1092
trl	-1093
uch	-1094
▁Al	-1095
ator	-1096
ices	-1097
ired	-1098
▁How	-1099
▁ask	-1100
ledge	-1101
wards	-1102
▁draw	-1103
▁happ	-1104
▁already	-1105
▁himself	-1106
▁,	-1107
dit	-1108
het	-1109
rol	-1110
ilar	-1111
iver	-1112
ures	-1113
▁Add	-1114
▁eye	-1115
▁saw	-1116
▁son	-1117
▁able	-1118
▁does	-1119
▁four	-1120
▁loop	-1121
▁save	-1122
▁whose	-1123
▁words	-1124
▁father	-1125
▁practice	-1126
▁directory	-1127
▁statement	-1128
”.	-1129
ateg	-1130
▁ref	-1131
▁cast	-1132
▁cons	-1133
▁find	-1134
▁home	-1135
ccount	-1136
▁bring	-1137
▁whole	-1138
aj	-1139
ber	-1140
cle	-1141
und	-1142
▁Is	-1143
▁ho	-1144
ained	-1145
erson	-1146
ities	-1147
itten	-1148
stand	-1149
▁hear	-1150
▁thing	-1151
▁inside	-1152
▁Project	-1153
▁terminal	-1154
▁breathing	-1155
).	-1156
ief	-1157
oha	-1158
omp	-1159
rah	-1160
▁Kr	-1161
▁liv	-1162
serve	-1163
thren	-1164
▁Ctrl	-1165
▁anim	-1166
▁just	-1167
▁keep	-1168
▁stra	-1169
▁helps	-1170
lication	-1171
▁written	-1172
▁answered	-1173
▁sequence	-1174
▁important	-1175
".	-1176
1.	-1177
els	-1178
iew	-1179
way	-1180
▁id	-1181
sent	-1182
ship	-1183
▁Not	-1184
▁mar	-1185
▁Koha	-1186
▁That	-1187
▁legs	-1188
▁lines	-1189
▁multi	-1190
▁folder	-1191
▁brought	-1192
▁message	-1193
▁knowledge	-1194
He	-1195
ret	-1196
ript	-1197
▁div	-1198
▁loc	-1199
ating	-1200
oodle	-1201
▁Child	-1202
▁count	-1203
▁indic	-1204
▁known	-1205
▁named	-1206
▁organ	-1207
▁Moodle	-1208
▁Firefox	-1209
▁neither	-1210
▁perform	-1211
▁teacher	-1212
▁brackets	-1213
MP	-1214
be	-1215
ys	-1216
▁+	-1217
▁0	-1218
any	-1219
ape	-1220
▁Do	-1221
hing	-1222
ipse	-1223
ouch	-1224
wise	-1225
▁Who	-1226
▁act	-1227
▁exp	-1228
▁tre	-1229
ified	-1230
ittle	-1231
ource	-1232
▁When	-1233
▁decl	-1234
▁kind	-1235
▁rest	-1236
▁seen	-1237
▁spec	-1238
▁step	-1239
▁blood	-1240
▁point	-1241
▁table	-1242
▁result	-1243
▁appears	-1244
▁brethren	-1245
kt	-1246
▁""	-1247
▁ph	-1248
ases	-1249
clud	-1250
roll	-1251
▁ext	-1252
▁mak	-1253
▁pal	-1254
arent	-1255
illed	-1256
▁area	-1257
▁took	-1258
▁close	-1259
▁incre	-1260
▁light	-1261
▁double	-1262
▁lesson	-1263
▁nature	-1264
▁search	-1265
▁nothing	-1266
▁objects	-1267
'.	-1268
__	-1269
aul	-1270
cus	-1271
not	-1272
▁Su	-1273
▁sk	-1274
down	-1275
▁All	-1276
▁city	-1277
▁dele	-1278
▁path	-1279
▁summ	-1280
▁webs	-1281
▁well	-1282
ording	-1283
▁added	-1284
▁forth	-1285
▁works	-1286
▁prompt	-1287
▁struct	-1288
▁believe	-1289
▁install	-1290
▁kingdom	-1291
▁prophet	-1292
▁student	-1293
▁righteous	-1294
▁understand	-1295
ST	-1296
ex	-1297
me	-1298
ng	-1299
lop	-1300
mic	-1301
pen	-1302
▁My	-1303
hale	-1304
ived	-1305
name	-1306
ying	-1307
▁Jew	-1308
▁car	-1309
▁cop	-1310
▁fle	-1311
▁mod	-1312
ished	-1313
▁Stud	-1314
▁Yoga	-1315
▁days	-1316
▁prev	-1317
ructor	-1318
▁India	-1319
▁trans	-1320
▁voice	-1321
▁Please	-1322
▁System	-1323
▁ground	-1324
▁changes	-1325
▁pattern	-1326
▁respect	-1327
.0	-1328
If	-1329
bo	-1330
ze	-1331
com	-1332
edi	-1333
gen	-1334
ita	-1335
jun	-1336
ung	-1337
vas	-1338
ager	-1339
ches	-1340
oint	-1341
outh	-1342
part	-1343
aning	-1344
velop	-1345
▁Java	-1346
▁case	-1347
▁last	-1348
▁most	-1349
▁pray	-1350
▁true	-1351
soever	-1352
▁Krish	-1353
▁Those	-1354
▁brows	-1355
▁peace	-1356
▁Create	-1357
▁format	-1358
▁little	-1359
▁parent	-1360
▁spirit	-1361
herefore	-1362
▁Library	-1363
▁brother	-1364
▁download	-1365
▁straight	-1366
()	-1367
NA	-1368
box	-1369
erc	-1370
ian	-1371
ics	-1372
ses	-1373
aves	-1374
cles	-1375
istr	-1376
otes	-1377
rect	-1378
ully	-1379
urch	-1380
▁Des	-1381
▁Jer	-1382
▁Sam	-1383
▁Ser	-1384
▁awk	-1385
▁bit	-1386
▁jud	-1387
ayama	-1388
ering	-1389
nding	-1390
▁conc	-1391
ctions	-1392
▁stand	-1393
▁Notice	-1394
▁access	-1395
▁priest	-1396
▁switch	-1397
▁receive	-1398
▁support	-1399
▁website	-1400
▁question	-1401
ME	-1402
▁7	-1403
▁X	-1404
cts	-1405
ier	-1406
men	-1407
nal	-1408
▁ID	-1409
ined	-1410
lier	-1411
▁air	-1412
▁hum	-1413
▁sit	-1414
▁wom	-1415
uring	-1416
▁Edit	-1417
▁Note	-1418
▁Rama	-1419
▁dead	-1420
▁much	-1421
▁tell	-1422
▁could	-1423
▁mount	-1424
▁param	-1425
▁fields	-1426
▁having	-1427
▁includ	-1428
▁person	-1429
▁certain	-1430
▁execute	-1431
It	-1432
ON	-1433
go	-1434
Now	-1435
adi	-1436
idd	-1437
ift	-1438
ilt	-1439
ops	-1440
alem	-1441
cept	-1442
face	-1443
ried	-1444
board	-1445
ccess	-1446
ually	-1447
▁feet	-1448
▁fore	-1449
▁tree	-1450
▁gener	-1451
▁paint	-1452
▁taken	-1453
▁truth	-1454
▁white	-1455
▁string	-1456
tutorial	-1457
▁control	-1458
▁variables	-1459
arm	-1460
ock	-1461
org	-1462
▁5.	-1463
▁By	-1464
▁Or	-1465
▁di	-1466
▁el	-1467
atab	-1468
▁cir	-1469
▁god	-1470
▁gra	-1471
▁mat	-1472
▁pos	-1473
▁too	-1474
▁whe	-1475
acter	-1476
ument	-1477
▁ever	-1478
▁item	-1479
▁poss	-1480
▁prot	-1481
▁walk	-1482
clipse	-1483
haling	-1484
usalem	-1485
▁remem	-1486
▁round	-1487
▁shows	-1488
▁slash	-1489
▁visit	-1490
▁cannot	-1491
▁depart	-1492
▁earlier	-1493
▁Jerusalem	-1494
▁according	-1495
▁application	-1496
▁constructor	-1497
CT	-1498
gg	-1499
orn	-1500
sor	-1501
umn	-1502
▁10	-1503
▁Pl	-1504
▁ac	-1505
anel	-1506
iend	-1507
▁Sim	-1508
▁hyp	-1509
▁inv	-1510
▁old	-1511
▁sea	-1512
▁yet	-1513
▁Cont	-1514
▁Jews	-1515
▁With	-1516
▁cook	-1517
▁dark	-1518
▁dest	-1519
▁five	-1520
▁gave	-1521
▁note	-1522
▁suff	-1523
icular	-1524
▁Arjun	-1525
▁categ	-1526
▁death	-1527
▁glory	-1528
▁produ	-1529
▁relax	-1530
▁users	-1531
▁Change	-1532
▁behold	-1533
▁friend	-1534
▁browser	-1535
▁similar	-1536
▁summari	-1537
▁complete	-1538
io	-1539
mp	-1540
▁6	-1541
ilk	-1542
loy	-1543
ual	-1544
▁4.	-1545
▁Ob	-1546
iled	-1547
olon	-1548
omes	-1549
rent	-1550
▁Sup	-1551
▁nor	-1552
angle	-1553
ators	-1554
fully	-1555
orrow	-1556
▁call	-1557
▁fing	-1558
▁hast	-1559
▁post	-1560
▁seed	-1561
ically	-1562
▁First	-1563
▁Front	-1564
▁admin	-1565
▁below	-1566
▁mouth	-1567
▁order	-1568
▁saved	-1569
▁spake	-1570
▁types	-1571
▁temple	-1572
▁Krishna	-1573
▁Student	-1574
▁muscles	-1575
ccounting	-1576
▁clicking	-1577
▁elements	-1578
▁selection	-1579
▁structure	-1580
Be	-1581
ib	-1582
▁Q	-1583
One	-1584
cul	-1585
eep	-1586
When	-1587
fect	-1588
ided	-1589
ised	-1590
▁art	-1591
▁don	-1592
▁sal	-1593
▁More	-1594
▁cent	-1595
▁dise	-1596
▁evil	-1597
▁fire	-1598
▁heal	-1599
▁ment	-1600
uments	-1601
▁fruit	-1602
▁seven	-1603
▁shalt	-1604
micolon	-1605
▁cometh	-1606
▁screen	-1607
▁single	-1608
▁Manager	-1609
▁animals	-1610
▁methods	-1611
▁success	-1612
01	-1613
day	-1614
ead	-1615
emo	-1616
oud	-1617
spe	-1618
▁Ab	-1619
▁Sw	-1620
▁ve	-1621
aces	-1622
anas	-1623
angu	-1624
ched	-1625
omet	-1626
uted	-1627
vern	-1628
ways	-1629
▁Bre	-1630
▁Set	-1631
▁eas	-1632
▁flo	-1633
▁got	-1634
▁sun	-1635
▁try	-1636
aught	-1637
itial	-1638
ories	-1639
thing	-1640
▁Book	-1641
▁conf	-1642
▁drag	-1643
▁live	-1644
▁prov	-1645
▁block	-1646
▁clean	-1647
▁comes	-1648
▁doing	-1649
▁flesh	-1650
▁input	-1651
▁short	-1652
▁store	-1653
atabase	-1654
▁Arjuna	-1655
▁around	-1656
▁canvas	-1657
▁common	-1658
▁delete	-1659
▁leaves	-1660
▁living	-1661
▁others	-1662
▁entered	-1663
▁numbers	-1664
▁protect	-1665
▁password	-1666
▁prophets	-1667
ik	-1668
oh	-1669
att	-1670
ron	-1671
This	-1672
atur	-1673
ives	-1674
rodu	-1675
sing	-1676
▁doc	-1677
▁pur	-1678
▁wit	-1679
▁date	-1680
▁high	-1681
▁front	-1682
▁FrontA	-1683
▁Spirit	-1684
▁affect	-1685
▁appear	-1686
▁source	-1687
▁position	-1688
▁semicolon	-1689
▁FrontAccounting	-1690
xy	-1691
▁:	-1692
cel	-1693
ict	-1694
iqu	-1695
mon	-1696
txt	-1697
▁Sa	-1698
▁gu	-1699
ased	-1700
fort	-1701
ideo	-1702
itud	-1703
ized	-1704
krit	-1705
line	-1706
▁IDE	-1707
▁sep	-1708
alled	-1709
▁From	-1710
▁Name	-1711
▁dist	-1712
▁face	-1713
▁full	-1714
▁mask	-1715
▁ship	-1716
alance	-1717
ground	-1718
spoken	-1719
▁After	-1720
▁brush	-1721
▁build	-1722
▁chief	-1723
▁music	-1724
▁sound	-1725
▁become	-1726
▁script	-1727
▁simple	-1728
▁typing	-1729
▁becomes	-1730
▁current	-1731
▁develop	-1732
▁happens	-1733
▁organis	-1734
▁perfect	-1735
▁believed	-1736
▁multiple	-1737
▁students	-1738
▁righteousness	-1739
++	-1740
2.	-1741
▁9	-1742
ION	-1743
arn	-1744
iti	-1745
▁OS	-1746
▁Sc	-1747
----	-1748
heck	-1749
ider	-1750
ists	-1751
mail	-1752
nces	-1753
olog	-1754
owly	-1755
vers	-1756
▁arm	-1757
▁aut	-1758
▁fal	-1759
▁fin	-1760
▁gre	-1761
ached	-1762
ently	-1763
ifest	-1764
ility	-1765
iness	-1766
ister	-1767
▁Open	-1768
▁Paul	-1769
▁fill	-1770
▁free	-1771
▁gets	-1772
▁langu	-1773
▁level	-1774
▁parts	-1775
▁takes	-1776
▁video	-1777
▁amount	-1778
▁Eclipse	-1779
▁Teacher	-1780
▁present	-1781
▁possible	-1782
▁required	-1783
▁particular	-1784
""	-1785
AS	-1786
As	-1787
To	-1788
az	-1789
gy	-1790
ob	-1791
’.	-1792
▁?	-1793
enc	-1794
ets	-1795
ohn	-1796
rite	-1797
ross	-1798
▁cre	-1799
▁cut	-1800
▁fam	-1801
▁rot	-1802
▁und	-1803
▁war	-1804
After	-1805
eters	-1806
loyee	-1807
ormal	-1808
tings	-1809
ustom	-1810
▁Comp	-1811
▁fell	-1812
▁hold	-1813
▁rect	-1814
▁says	-1815
▁till	-1816
▁year	-1817
ackage	-1818
athing	-1819
ension	-1820
lessed	-1821
▁basic	-1822
▁clear	-1823
▁email	-1824
▁grace	-1825
▁ident	-1826
▁leave	-1827
anayama	-1828
▁better	-1829
▁circle	-1830
▁destro	-1831
▁opened	-1832
▁quotes	-1833
........	-1834
▁account	-1835
▁address	-1836
▁greater	-1837
▁manifest	-1838
▁previous	-1839
▁interface	-1840
ls	-1841
eta	-1842
oke	-1843
ole	-1844
▁At	-1845
▁On	-1846
aced	-1847
atha	-1848
iers	-1849
▁Con	-1850
▁New	-1851
▁cow	-1852
▁tit	-1853
retch	-1854
▁Come	-1855
▁John	-1856
▁Make	-1857
▁care	-1858
▁copy	-1859
▁inte	-1860
▁milk	-1861
▁send	-1862
▁view	-1863
▁Under	-1864
▁drink	-1865
▁index	-1866
▁night	-1867
▁steps	-1868
▁touch	-1869
▁watch	-1870
anskrit	-1871
▁church	-1872
▁corner	-1873
▁hyphen	-1874
▁Observe	-1875
▁comfort	-1876
▁correct	-1877
▁country	-1878
▁witness	-1879
▁declared	-1880
▁multitud	-1881
▁received	-1882
▁beginning	-1883
.04	-1884
bed	-1885
hem	-1886
thy	-1887
▁Ag	-1888
▁Bl	-1889
▁Cl	-1890
▁Gr	-1891
▁Le	-1892
▁Up	-1893
cape	-1894
inue	-1895
iron	-1896
ital	-1897
ktop	-1898
pped	-1899
reme	-1900
▁arg	-1901
▁far	-1902
▁lot	-1903
▁org	-1904
▁ple	-1905
▁pop	-1906
▁squ	-1907
▁thr	-1908
ables	-1909
arden	-1910
ately	-1911
▁Keep	-1912
▁Tool	-1913
▁bird	-1914
▁blue	-1915
▁holy	-1916
▁hour	-1917
▁judg	-1918
▁mark	-1919
▁shew	-1920
▁size	-1921
aining	-1922
▁Peter	-1923
▁devil	-1924
▁names	-1925
▁times	-1926
▁trees	-1927
▁until	-1928
▁column	-1929
▁comput	-1930
▁server	-1931
▁static	-1932
▁meaning	-1933
▁whether	-1934
▁working	-1935
▁worship	-1936
▁increase	-1937
▁installed	-1938
▁summarize	-1939
▁respective	-1940
▁yourselves	-1941
bt	-1942
▁z	-1943
AMP	-1944
ICT	-1945
adh	-1946
anc	-1947
ati	-1948
aus	-1949
let	-1950
lok	-1951
▁Br	-1952
▁Tr	-1953
AMPP	-1954
They	-1955
ands	-1956
aste	-1957
ceed	-1958
edic	-1959
ones	-1960
peat	-1961
utes	-1962
ware	-1963
▁Bud	-1964
▁Mar	-1965
▁Pre	-1966
▁She	-1967
▁Sth	-1968
▁Why	-1969
▁bes	-1970
▁lab	-1971
▁mon	-1972
▁occ	-1973
▁ten	-1974
▁why	-1975
MEICT	-1976
aster	-1977
asure	-1978
click	-1979
▁Phar	-1980
▁flow	-1981
▁memb	-1982
▁plus	-1983
▁pull	-1984
▁remo	-1985
▁site	-1986
▁sold	-1987
▁talk	-1988
▁turn	-1989
▁wife	-1990
▁XAMPP	-1991
▁black	-1992
▁cause	-1993
▁later	-1994
▁raise	-1995
▁years	-1996
▁always	-1997
▁editor	-1998
▁making	-1999
▁proble	-2000
▁proper	-2001
▁remove	-2002
▁suffer	-2003
▁Pharise	-2004
▁destroy	-2005
▁explain	-2006
▁visible	-2007
▁category	-2008
▁document	-2009
▁followed	-2010
▁keyboard	-2011
▁remember	-2012
▁affection	-2013
▁practices	-2014
▁questions	-2015
▁parameters	-2016
cu	-2017
ww	-2018
▁–	-2019
cri	-2020
lev	-2021
man	-2022
sed	-2023
▁12	-2024
▁OK	-2025
▁ht	-2026
iles	-2027
ogle	-2028
rael	-2029
roup	-2030
▁Dis	-2031
▁ben	-2032
▁inc	-2033
▁inf	-2034
▁joy	-2035
ision	-2036
light	-2037
▁cows	-2038
▁deep	-2039
▁fear	-2040
▁feel	-2041
▁laid	-2042
▁once	-2043
▁sign	-2044
▁soft	-2045
▁star	-2046
▁sure	-2047
▁trib	-2048
▁yoga	-2049
ometim	-2050
▁Sales	-2051
▁asked	-2052
▁bread	-2053
▁chari	-2054
▁mater	-2055
▁minus	-2056
▁mouse	-2057
▁never	-2058
▁palms	-2059
▁plant	-2060
▁river	-2061
▁stood	-2062
▁Indian	-2063
▁Israel	-2064
▁Search	-2065
▁coming	-2066
▁conver	-2067
cription	-2068
▁content	-2069
▁feature	-2070
▁initial	-2071
▁mission	-2072
▁require	-2073
▁thought	-2074
▁database	-2075
▁administr	-2076
▁functions	-2077
▁statements	-2078
10	-2079
AR	-2080
RD	-2081
Te	-2082
lf	-2083
of	-2084
aka	-2085
ell	-2086
erv	-2087
ric	-2088
uru	-2089
▁16	-2090
▁Fe	-2091
That	-2092
avig	-2093
file	-2094
lose	-2095
mong	-2096
nect	-2097
oses	-2098
pend	-2099
ries	-2100
▁Run	-2101
▁See	-2102
▁Typ	-2103
▁fur	-2104
▁imm	-2105
▁sat	-2106
▁tag	-2107
shops	-2108
stril	-2109
uthor	-2110
▁Text	-2111
▁Thou	-2112
▁Wind	-2113
▁bond	-2114
▁clot	-2115
▁kept	-2116
▁lead	-2117
▁near	-2118
▁orig	-2119
▁song	-2120
▁tong	-2121
▁vill	-2122
itting	-2123
ources	-2124
ration	-2125
▁Check	-2126
▁Gener	-2127
▁Which	-2128
▁activ	-2129
▁aware	-2130
▁blank	-2131
▁false	-2132
▁green	-2133
▁panel	-2134
▁story	-2135
▁thine	-2136
▁third	-2137
ational	-2138
▁Sthiti	-2139
▁action	-2140
▁discus	-2141
▁fruits	-2142
▁garden	-2143
▁square	-2144
▁useful	-2145
▁compile	-2146
▁nostril	-2147
▁observe	-2148
▁priests	-2149
▁servants	-2150
▁Breathing	-2151
▁parenthes	-2152
▁rectangle	-2153
▁everything	-2154
//	-2155
ER	-2156
nc	-2157
nu	-2158
yd	-2159
▁8	-2160
▁Z	-2161
▁x	-2162
eds	-2163
ins	-2164
ips	-2165
ken	-2166
llo	-2167
mar	-2168
res	-2169
ulf	-2170
▁Ap	-2171
▁Av	-2172
▁ge	-2173
▁wa	-2174
anam	-2175
cher	-2176
ites	-2177
ream	-2178
sert	-2179
spel	-2180
▁Cur	-2181
▁Ram	-2182
▁Sur	-2183
▁few	-2184
▁met	-2185
▁oxy	-2186
▁sle	-2187
ience	-2188
raham	-2189
umber	-2190
▁Brah	-2191
▁Inks	-2192
▁Move	-2193
▁Some	-2194
▁arms	-2195
▁fast	-2196
▁forg	-2197
▁glor	-2198
▁mole	-2199
▁sake	-2200
▁autom	-2201
▁cloth	-2202
▁condu	-2203
▁floor	-2204
▁going	-2205
▁marks	-2206
▁refer	-2207
▁stone	-2208
▁Budget	-2209
▁brings	-2210
▁desire	-2211
▁effect	-2212
▁entire	-2213
▁gospel	-2214
▁normal	-2215
▁oxygen	-2216
▁raised	-2217
ferences	-2218
vernment	-2219
▁Abraham	-2220
▁changed	-2221
▁contact	-2222
▁further	-2223
▁library	-2224
▁members	-2225
Therefore	-2226
▁Inkscape	-2227
▁computer	-2228
▁creation	-2229
▁departed	-2230
▁workshops	-2231
/2	-2232
ND	-2233
RL	-2234
tp	-2235
va	-2236
▁।	-2237
://	-2238
HRD	-2239
chn	-2240
ork	-2241
shi	-2242
▁GI	-2243
aths	-2244
ited	-2245
ming	-2246
owed	-2247
▁Pat	-2248
▁ast	-2249
▁dec	-2250
▁fig	-2251
▁sur	-2252
▁syn	-2253
▁wis	-2254
While	-2255
acing	-2256
areth	-2257
ative	-2258
otion	-2259
owing	-2260
▁Code	-2261
▁Cour	-2262
▁Fill	-2263
▁else	-2264
▁harm	-2265
▁java	-2266
▁lest	-2267
▁ones	-2268
▁prin	-2269
▁reve	-2270
▁root	-2271
▁self	-2272
▁shar	-2273
▁soil	-2274
▁symb	-2275
▁toes	-2276
▁Inter	-2277
▁Write	-2278
▁angel	-2279
▁based	-2280
▁break	-2281
▁demon	-2282
▁final	-2283
▁group	-2284
▁separ	-2285
▁teach	-2286
mployee	-2287
▁compon	-2288
▁custom	-2289
▁devote	-2290
▁during	-2291
▁finger	-2292
▁manner	-2293
▁molecu	-2294
▁series	-2295
▁strong	-2296
▁thread	-2297
ometimes	-2298
▁Windows	-2299
▁courses	-2300
▁running	-2301
roduction	-2302
▁certific	-2303
▁language	-2304
▁mountain	-2305
▁indicates	-2306
▁themselves	-2307
▁successfully	-2308
',	-2309
ps	-2310
uc	-2311
EST	-2312
abb	-2313
abh	-2314
air	-2315
ala	-2316
amb	-2317
end	-2318
ern	-2319
olk	-2320
sol	-2321
the	-2322
udd	-2323
▁"•	-2324
▁Bu	-2325
▁La	-2326
▁ed	-2327
▁ii	-2328
▁ls	-2329
arya	-2330
crib	-2331
host	-2332
ient	-2333
ises	-2334
reng	-2335
rine	-2336
ring	-2337
roke	-2338
ught	-2339
umer	-2340
▁Fin	-2341
▁His	-2342
▁Net	-2343
▁Rem	-2344
▁Sit	-2345
▁Use	-2346
▁bur	-2347
▁cat	-2348
▁lar	-2349
▁obt	-2350
▁Bhag	-2351
▁GIMP	-2352
▁Many	-2353
▁born	-2354
▁foot	-2355
▁keys	-2356
▁land	-2357
▁lord	-2358
▁mach	-2359
▁sins	-2360
acters	-2361
▁Admin	-2362
▁Close	-2363
▁align	-2364
▁benef	-2365
▁chest	-2366
▁cried	-2367
▁doubt	-2368
▁joint	-2369
▁month	-2370
▁serve	-2371
▁sight	-2372
▁techn	-2373
▁trust	-2374
▁woman	-2375
ownload	-2376
▁Switch	-2377
▁beings	-2378
▁cursor	-2379
▁filled	-2380
▁sought	-2381
▁symbol	-2382
▁walked	-2383
▁worshi	-2384
▁Desktop	-2385
▁contrib	-2386
▁proceed	-2387
▁related	-2388
▁servant	-2389
▁Sanskrit	-2390
▁assigned	-2391
▁contains	-2392
▁demonstr	-2393
▁kindness	-2394
▁material	-2395
▁preached	-2396
▁settings	-2397
▁username	-2398
▁Pharisees	-2399
▁Pranayama	-2400
▁character	-2401
▁operators	-2402
▁certificates	-2403
EN	-2404
II	-2405
ug	-2406
wh	-2407
ás	-2408
ति	-2409
्य	-2410
▁=	-2411
...	-2412
acr	-2413
aur	-2414
bon	-2415
cut	-2416
ees	-2417
ged	-2418
ias	-2419
iss	-2420
oly	-2421
pty	-2422
▁Ph	-2423
IONS	-2424
aled	-2425
aras	-2426
ason	-2427
avid	-2428
demo	-2429
ened	-2430
ging	-2431
lock	-2432
oney	-2433
phab	-2434
▁Col	-2435
▁Raj	-2436
▁Sat	-2437
▁Sin	-2438
▁big	-2439
▁cap	-2440
▁dig	-2441
▁emp	-2442
▁gar	-2443
▁nut	-2444
▁pub	-2445
▁sou	-2446
▁ste	-2447
Jesus	-2448
There	-2449
aving	-2450
iddle	-2451
ioned	-2452
▁Also	-2453
▁Inst	-2454
▁King	-2455
▁MHRD	-2456
▁bear	-2457
▁best	-2458
▁doct	-2459
▁fall	-2460
▁foll	-2461
▁fulf	-2462
▁gray	-2463
▁http	-2464
▁kill	-2465
▁phys	-2466
▁prep	-2467
▁wish	-2468
ession	-2469
levant	-2470
▁David	-2471
▁curly	-2472
▁exerc	-2473
▁exist	-2474
▁impro	-2475
▁knees	-2476
▁lower	-2477
▁quick	-2478
▁title	-2479
aintain	-2480
▁alphab	-2481
▁layers	-2482
▁moving	-2483
▁needle	-2484
▁notice	-2485
▁regard	-2486
▁seeing	-2487
▁chariot	-2488
▁concent	-2489
▁cooking	-2490
▁divided	-2491
▁stretch	-2492
▁executed	-2493
▁features	-2494
▁relevant	-2495
▁multitude	-2496
▁supported	-2497
▁Government	-2498
▁characters	-2499
▁completely	-2500
▁worshipped	-2501
▁parentheses	-2502
Ex	-2503
NT	-2504
We	-2505
Ye	-2506
ty	-2507
++.	-2508
000	-2509
ANA	-2510
TeX	-2511
ane	-2512
bit	-2513
ked	-2514
ony	-2515
oom	-2516
rew	-2517
uda	-2518
usb	-2519
▁0.	-2520
▁Mo	-2521
▁No	-2522
▁Ye	-2523
▁jo	-2524
▁ru	-2525
ache	-2526
ense	-2527
illa	-2528
ique	-2529
ison	-2530
ough	-2531
rive	-2532
well	-2533
with	-2534
ydro	-2535
▁Rec	-2536
▁Rel	-2537
▁Ved	-2538
▁del	-2539
▁env	-2540
▁hon	-2541
▁ill	-2542
▁mer	-2543
▁mor	-2544
▁rej	-2545
▁rev	-2546
▁sup	-2547
acity	-2548
anced	-2549
aying	-2550
beans	-2551
ences	-2552
erily	-2553
ining	-2554
iving	-2555
right	-2556
uplic	-2557
ásana	-2558
▁List	-2559
▁Oper	-2560
▁Step	-2561
▁Vish	-2562
▁ener	-2563
▁fund	-2564
▁grow	-2565
▁meat	-2566
▁palm	-2567
▁pres	-2568
▁quiz	-2569
▁sacr	-2570
▁seek	-2571
▁told	-2572
▁vert	-2573
▁wine	-2574
▁wise	-2575
istory	-2576
▁Again	-2577
▁While	-2578
▁abdom	-2579
▁angle	-2580
▁apart	-2581
▁arrow	-2582
▁beast	-2583
▁cross	-2584
▁empty	-2585
▁forms	-2586
▁looks	-2587
▁medit	-2588
▁ought	-2589
▁ready	-2590
▁scrib	-2591
▁shape	-2592
ference	-2593
▁NMEICT	-2594
▁Number	-2595
▁Repeat	-2596
▁angels	-2597
▁cleans	-2598
▁flower	-2599
▁health	-2600
▁immedi	-2601
▁itself	-2602
▁passed	-2603
▁preach	-2604
▁spread	-2605
▁streng	-2606
▁taught	-2607
atically	-2608
halation	-2609
▁Account	-2610
▁Display	-2611
▁However	-2612
▁balance	-2613
▁buttock	-2614
▁colours	-2615
▁continu	-2616
▁defined	-2617
▁express	-2618
▁fathers	-2619
▁follows	-2620
▁integer	-2621
▁machine	-2622
▁opening	-2623
▁problem	-2624
▁records	-2625
Wherefore	-2626
▁identify	-2627
▁movement	-2628
▁returned	-2629
▁execution	-2630
▁organisms	-2631
▁friendship	-2632
AT	-2633
IT	-2634
ML	-2635
QL	-2636
St	-2637
gr	-2638
pr	-2639
▁>	-2640
Let	-2641
aut	-2642
ids	-2643
irm	-2644
ume	-2645
urt	-2646
yth	-2647
▁7.	-2648
▁Me	-2649
▁QU	-2650
▁Un	-2651
anah	-2652
arth	-2653
avas	-2654
bows	-2655
cial	-2656
idth	-2657
ilee	-2658
plet	-2659
tion	-2660
ured	-2661
veth	-2662
work	-2663
▁10.	-2664
▁Gal	-2665
▁Pad	-2666
▁Yes	-2667
▁age	-2668
▁bow	-2669
▁bro	-2670
▁eld	-2671
▁log	-2672
▁mag	-2673
▁oft	-2674
▁sky	-2675
These	-2676
ayana	-2677
cient	-2678
ggest	-2679
odule	-2680
ology	-2681
order	-2682
▁Dhar	-2683
▁Gent	-2684
▁Holy	-2685
▁Supp	-2686
▁Take	-2687
▁Your	-2688
▁bapt	-2689
▁base	-2690
▁bran	-2691
▁ears	-2692
▁grep	-2693
▁hard	-2694
▁husb	-2695
▁knew	-2696
▁neck	-2697
▁pict	-2698
▁qual	-2699
▁rise	-2700
▁roll	-2701
▁sort	-2702
▁wond	-2703
atural	-2704
erties	-2705
ilarly	-2706
▁Pract	-2707
▁QUEST	-2708
▁Simon	-2709
▁Stand	-2710
▁began	-2711
▁books	-2712
▁boxes	-2713
▁comma	-2714
▁cover	-2715
▁exper	-2716
▁hence	-2717
▁human	-2718
▁icons	-2719
▁items	-2720
▁least	-2721
▁login	-2722
▁medic	-2723
▁moved	-2724
▁occur	-2725
▁shlok	-2726
▁tempt	-2727
▁thigh	-2728
▁thous	-2729
Details	-2730
acteria	-2731
mission	-2732
▁Course	-2733
▁Scroll	-2734
▁design	-2735
▁either	-2736
▁forest	-2737
▁humans	-2738
▁images	-2739
▁slider	-2740
▁slowly	-2741
▁verily	-2742
▁wisdom	-2743
▁blessed	-2744
▁collect	-2745
▁comment	-2746
▁connect	-2747
▁desired	-2748
▁disease	-2749
▁element	-2750
▁forward	-2751
▁keyword	-2752
▁subject	-2753
▁suggest	-2754
▁Employee	-2755
▁Netbeans	-2756
▁controls	-2757
▁devotion	-2758
▁diseases	-2759
▁inhaling	-2760
▁judgment	-2761
▁vertical	-2762
▁QUESTIONS	-2763
▁arguments	-2764
▁commanded	-2765
▁mentioned	-2766
▁whosoever	-2767
▁commandment	-2768
▁immediately	-2769
▁installation	-2770
▁administrator	-2771
▁automatically	-2772
▁concentration	-2773
IN	-2774
SS	-2775
So	-2776
by	-2777
fe	-2778
to	-2779
uj	-2780
▁&	-2781
▁/	-2782
▁स	-2783
You	-2784
ams	-2785
ann	-2786
avi	-2787
dir	-2788
ery	-2789
ety	-2790
fer	-2791
fig	-2792
for	-2793
ira	-2794
irs	-2795
ism	-2796
mit	-2797
oid	-2798
rie	-2799
rut	-2800
uff	-2801
unk	-2802
▁11	-2803
▁KT	-2804
▁Qu	-2805
Name	-2806
agog	-2807
alls	-2808
alog	-2809
amas	-2810
ames	-2811
andh	-2812
head	-2813
page	-2814
rose	-2815
udra	-2816
▁Her	-2817
▁Loc	-2818
▁Per	-2819
▁Sub	-2820
▁adj	-2821
▁boy	-2822
▁den	-2823
▁exh	-2824
▁har	-2825
▁mem	-2826
▁non	-2827
▁opt	-2828
▁tot	-2829
ances	-2830
cript	-2831
encil	-2832
fered	-2833
marks	-2834
oxide	-2835
▁Blur	-2836
▁Item	-2837
▁Just	-2838
▁Once	-2839
▁Path	-2840
▁Sita	-2841
▁User	-2842
▁cult	-2843
▁folk	-2844
▁lung	-2845
▁mode	-2846
▁moon	-2847
▁purp	-2848
▁repl	-2849
▁room	-2850
▁sens	-2851
▁soul	-2852
▁stat	-2853
▁stem	-2854
▁stop	-2855
▁thus	-2856
askara	-2857
ivered	-2858
iverse	-2859
resent	-2860
▁16.04	-2861
▁Excel	-2862
▁Moses	-2863
▁Order	-2864
▁Print	-2865
▁Types	-2866
▁apost	-2867
▁arose	-2868
▁birds	-2869
▁built	-2870
▁chapt	-2871
▁dwell	-2872
▁famil	-2873
▁graph	-2874
▁judge	-2875
▁reach	-2876
▁slide	-2877
▁today	-2878
▁wrote	-2879
ception	-2880
▁Before	-2881
▁Serial	-2882
▁author	-2883
▁became	-2884
▁calcul	-2885
▁elbows	-2886
▁except	-2887
▁formed	-2888
▁middle	-2889
▁report	-2890
▁stitch	-2891
▁tongue	-2892
▁weight	-2893
uplicate	-2894
▁Galilee	-2895
▁drawing	-2896
▁fingers	-2897
▁flowers	-2898
▁morning	-2899
▁natural	-2900
▁printed	-2901
▁removed	-2902
▁scribes	-2903
▁synagog	-2904
▁thyself	-2905
▁Download	-2906
▁Gentiles	-2907
▁commands	-2908
▁exhaling	-2909
▁instance	-2910
▁likewise	-2911
▁operator	-2912
▁shoulder	-2913
▁soldiers	-2914
▁starting	-2915
▁studying	-2916
▁Similarly	-2917
▁completed	-2918
▁delivered	-2919
▁ourselves	-2920
▁recording	-2921
▁background	-2922
▁components	-2923
!"	-2924
4.	-2925
EX	-2926
YY	-2927
aw	-2928
bh	-2929
cy	-2930
df	-2931
ek	-2932
ey	-2933
ih	-2934
ln	-2935
017	-2936
How	-2937
TML	-2938
aga	-2939
ats	-2940
fic	-2941
ool	-2942
rom	-2943
uce	-2944
ump	-2945
unt	-2946
yah	-2947
zes	-2948
▁20	-2949
▁Ge	-2950
▁Pe	-2951
▁Vy	-2952
aksh	-2953
anes	-2954
anks	-2955
apes	-2956
back	-2957
cent	-2958
core	-2959
empt	-2960
enth	-2961
etic	-2962
icro	-2963
imum	-2964
most	-2965
ners	-2966
ngth	-2967
ntax	-2968
resp	-2969
riya	-2970
ters	-2971
ural	-2972
▁100	-2973
▁11.	-2974
▁Def	-2975
▁Nam	-2976
▁aff	-2977
▁cry	-2978
▁eng	-2979
▁fix	-2980
▁gat	-2981
▁hid	-2982
▁hig	-2983
▁ins	-2984
▁mid	-2985
▁ord	-2986
▁pix	-2987
▁pot	-2988
▁san	-2989
▁txt	-2990
▁wat	-2991
alcul	-2992
ceive	-2993
celle	-2994
cious	-2995
class	-2996
ernal	-2997
ising	-2998
itted	-2999
lowly	-3000
pping	-3001
ushes	-3002
verse	-3003
zilla	-3004
▁Amen	-3005
▁Both	-3006
▁HTML	-3007
▁Last	-3008
▁Marc	-3009
▁Page	-3010
▁Post	-3011
▁cell	-3012
▁desp	-3013
▁feed	-3014
▁gift	-3015
▁guid	-3016
▁merc	-3017
▁mine	-3018
▁past	-3019
▁poor	-3020
▁pose	-3021
▁sons	-3022
▁stay	-3023
▁ways	-3024
▁wild	-3025
▁zoom	-3026
aneous	-3027
asting	-3028
ential	-3029
erning	-3030
vation	-3031
▁Build	-3032
▁Every	-3033
▁Ghost	-3034
▁Herod	-3035
▁Panel	-3036
▁Shift	-3037
▁Start	-3038
▁aston	-3039
▁dance	-3040
▁fight	-3041
▁focus	-3042
▁forum	-3043
▁grade	-3044
▁often	-3045
▁setup	-3046
▁upper	-3047
▁wrath	-3048
▁young	-3049
acharya	-3050
cending	-3051
cessary	-3052
ination	-3053
itional	-3054
ization	-3055
pending	-3056
▁Asanas	-3057
▁Finish	-3058
▁Method	-3059
▁Stroke	-3060
▁bright	-3061
▁carbon	-3062
▁dissol	-3063
▁easily	-3064
▁eating	-3065
▁energy	-3066
▁length	-3067
▁locate	-3068
▁minute	-3069
▁module	-3070
▁online	-3071
▁pencil	-3072
▁placed	-3073
▁public	-3074
▁rather	-3075
▁shapes	-3076
▁slides	-3077
▁though	-3078
▁upload	-3079
ironment	-3080
▁General	-3081
▁Suppose	-3082
▁ancient	-3083
▁company	-3084
▁eternal	-3085
▁excelle	-3086
▁gathere	-3087
▁harmful	-3088
▁hearing	-3089
▁include	-3090
▁knowing	-3091
▁package	-3092
▁posture	-3093
▁promise	-3094
▁request	-3095
avigation	-3096
ification	-3097
▁alphabet	-3098
▁bacteria	-3099
▁buttocks	-3100
▁devotees	-3101
▁everyone	-3102
▁learning	-3103
▁minister	-3104
▁original	-3105
▁presence	-3106
▁sections	-3107
▁software	-3108
▁awareness	-3109
▁fulfilled	-3110
▁movements	-3111
▁parameter	-3112
▁performed	-3113
▁represent	-3114
▁permission	-3115
▁development	-3116
▁preferences	-3117
5.	-3118
AC	-3119
AN	-3120
Ag	-3121
dd	-3122
hi	-3123
▁प	-3124
ali	-3125
con	-3126
iva	-3127
rav	-3128
ruc	-3129
sha	-3130
ury	-3131
▁50	-3132
▁>>	-3133
▁En	-3134
▁cr	-3135
▁ma	-3136
____	-3137
aria	-3138
erty	-3139
ithm	-3140
nded	-3141
raph	-3142
rees	-3143
rief	-3144
rows	-3145
▁App	-3146
▁Are	-3147
▁Ass	-3148
▁Com	-3149
▁Him	-3150
▁Jan	-3151
▁Mah	-3152
▁Red	-3153
▁Rot	-3154
▁Say	-3155
▁Sum	-3156
▁beh	-3157
▁cup	-3158
▁dam	-3159
▁ess	-3160
▁est	-3161
▁fil	-3162
▁fre	-3163
▁pie	-3164
▁row	-3165
▁six	-3166
▁tar	-3167
▁vir	-3168
▁yog	-3169
ASANA	-3170
Which	-3171
alent	-3172
arian	-3173
icing	-3174
idden	-3175
ilate	-3176
iting	-3177
loved	-3178
ously	-3179
veral	-3180
where	-3181
▁Back	-3182
▁Bhar	-3183
▁Feel	-3184
▁Mary	-3185
▁Serv	-3186
▁Shri	-3187
▁Test	-3188
▁army	-3189
▁atom	-3190
▁bend	-3191
▁crop	-3192
▁deli	-3193
▁fond	-3194
▁fool	-3195
▁goes	-3196
▁inde	-3197
▁inse	-3198
▁iron	-3199
▁medi	-3200
▁none	-3201
▁pack	-3202
▁pure	-3203
▁real	-3204
▁resp	-3205
▁role	-3206
▁subs	-3207
▁trad	-3208
Saying	-3209
ficult	-3210
idence	-3211
▁Class	-3212
▁Files	-3213
▁Hatha	-3214
▁Place	-3215
▁bound	-3216
▁grand	-3217
▁large	-3218
▁makes	-3219
▁perse	-3220
▁spine	-3221
▁women	-3222
agement	-3223
respond	-3224
ruction	-3225
ulation	-3226
▁Choose	-3227
▁Insert	-3228
▁Mother	-3229
▁Remove	-3230
▁Vishnu	-3231
▁answer	-3232
▁border	-3233
▁centre	-3234
▁choice	-3235
▁commun	-3236
▁compil	-3237
▁digest	-3238
▁famili	-3239
▁hearts	-3240
▁longer	-3241
▁reason	-3242
▁repent	-3243
▁scroll	-3244
▁sorrow	-3245
▁states	-3246
▁stored	-3247
▁turned	-3248
▁worthy	-3249
ashboard	-3250
perature	-3251
▁Mozilla	-3252
▁closing	-3253
▁convert	-3254
▁getting	-3255
▁letters	-3256
▁outside	-3257
▁parents	-3258
▁results	-3259
▁several	-3260
▁sitting	-3261
▁special	-3262
▁towards	-3263
▁village	-3264
▁Continue	-3265
▁conducts	-3266
▁continue	-3267
▁creating	-3268
▁darkness	-3269
▁doctrine	-3270
▁entering	-3271
▁examples	-3272
▁faithful	-3273
▁overload	-3274
▁powerful	-3275
▁pressure	-3276
▁speaketh	-3277
▁thousand	-3278
▁Sometimes	-3279
▁Therefore	-3280
▁answering	-3281
▁believeth	-3282
▁difficult	-3283
▁extension	-3284
▁increment	-3285
▁necessary	-3286
▁astonished	-3287
▁concerning	-3288
▁correspond	-3289
▁environment	-3290
),	-3291
6.	-3292
9.	-3293
An	-3294
HA	-3295
PH	-3296
ai	-3297
oe	-3298
wo	-3299
▁*	-3300
▁क	-3301
)."	-3302
EXT	-3303
PAC	-3304
Who	-3305
YPH	-3306
abl	-3307
add	-3308
alf	-3309
anj	-3310
aya	-3311
bar	-3312
erm	-3313
ime	-3314
iod	-3315
nam	-3316
oes	-3317
oun	-3318
tha	-3319
ura	-3320
▁9.	-3321
▁Bi	-3322
▁Us	-3323
▁Ve	-3324
Edit	-3325
agar	-3326
amed	-3327
aper	-3328
iliz	-3329
irth	-3330
ling	-3331
llar	-3332
napt	-3333
ntro	-3334
osed	-3335
osen	-3336
rupt	-3337
sara	-3338
uman	-3339
urre	-3340
view	-3341
▁Ach	-3342
▁Dou	-3343
▁Eng	-3344
▁INT	-3345
▁Lay	-3346
▁Mat	-3347
▁Our	-3348
▁Res	-3349
▁URL	-3350
▁Yog	-3351
▁ach	-3352
▁adv	-3353
▁dra	-3354
▁eff	-3355
▁fut	-3356
▁inn	-3357
▁iss	-3358
▁pra	-3359
▁pun	-3360
▁rul	-3361
▁sed	-3362
▁sew	-3363
▁sol	-3364
▁unb	-3365
▁upd	-3366
Among	-3367
Where	-3368
YPHEN	-3369
aling	-3370
aring	-3371
atics	-3372
atory	-3373
iders	-3374
irect	-3375
ivers	-3376
otein	-3377
ouses	-3378
plete	-3379
plied	-3380
while	-3381
ython	-3382
▁Draw	-3383
▁Expl	-3384
▁Have	-3385
▁Line	-3386
▁OPAC	-3387
▁Prin	-3388
▁Sukt	-3389
▁Team	-3390
▁acqu	-3391
▁caus	-3392
▁cruc	-3393
▁fert	-3394
▁fine	-3395
▁gone	-3396
▁grie	-3397
▁knee	-3398
▁load	-3399
▁logo	-3400
▁loud	-3401
▁poll	-3402
▁prof	-3403
▁rebu	-3404
action	-3405
ecause	-3406
efined	-3407
istics	-3408
liness	-3409
naptic	-3410
sorbed	-3411
ternal	-3412
uncher	-3413
▁Among	-3414
▁Geeta	-3415
▁Setup	-3416
▁alone	-3417
▁asana	-3418
▁bones	-3419
▁brain	-3420
▁cloud	-3421
▁decre	-3422
▁heads	-3423
▁heels	-3424
▁local	-3425
▁match	-3426
▁nutri	-3427
▁obser	-3428
▁pages	-3429
▁range	-3430
▁seeds	-3431
▁sheep	-3432
▁sleep	-3433
▁songs	-3434
▁speed	-3435
▁stars	-3436
▁super	-3437
▁veget	-3438
adasana	-3439
ensions	-3440
ication	-3441
istered	-3442
ucation	-3443
▁Behold	-3444
▁Calcul	-3445
▁Dharma	-3446
▁Editor	-3447
▁Google	-3448
▁HYPHEN	-3449
▁INTEXT	-3450
▁KTouch	-3451
▁Locate	-3452
▁Person	-3453
▁Upload	-3454
▁afflic	-3455
▁allows	-3456
▁errors	-3457
▁exhale	-3458
▁future	-3459
▁govern	-3460
▁guidel	-3461
▁honour	-3462
▁houses	-3463
▁indeed	-3464
▁matter	-3465
▁mighty	-3466
▁places	-3467
▁player	-3468
▁region	-3469
▁remain	-3470
▁rivers	-3471
▁rounds	-3472
▁throne	-3473
ological	-3474
▁Company	-3475
▁Package	-3476
▁Samsara	-3477
▁attempt	-3478
▁dioxide	-3479
▁extract	-3480
▁friends	-3481
▁history	-3482
▁husband	-3483
▁instead	-3484
▁nations	-3485
▁picture	-3486
▁playing	-3487
▁pleased	-3488
▁rejoice	-3489
▁reverse	-3490
▁session	-3491
▁sources	-3492
urrection	-3493
▁Maintain	-3494
▁MarcEdit	-3495
▁Ramayana	-3496
▁appeared	-3497
▁benefits	-3498
▁existing	-3499
▁fondness	-3500
▁molecule	-3501
▁obtained	-3502
▁packages	-3503
▁painting	-3504
▁performs	-3505
▁pressing	-3506
▁products	-3507
▁provided	-3508
▁touching	-3509
▁Namaskara	-3510
▁Operating	-3511
▁backwards	-3512
▁exercises	-3513
▁explained	-3514
▁salvation	-3515
▁categories	-3516
▁conditions	-3517
▁difference	-3518
▁throughout	-3519
▁whatsoever	-3520
▁directories	-3521
▁temperature	-3522
▁corresponding	-3523
3.	-3524
30	-3525
50	-3526
By	-3527
De	-3528
Or	-3529
RE	-3530
SP	-3531
Sp	-3532
bs	-3533
de	-3534
ky	-3535
ml	-3536
sa	-3537
ym	-3538
्र	-3539
ARC	-3540
SQL	-3541
ajr	-3542
amp	-3543
ech	-3544
emn	-3545
ges	-3546
imp	-3547
ius	-3548
joy	-3549
len	-3550
ney	-3551
now	-3552
ras	-3553
ube	-3554
uck	-3555
une	-3556
use	-3557
www	-3558
▁18	-3559
▁30	-3560
▁Ed	-3561
▁PH	-3562
▁cd	-3563
▁dh	-3564
What	-3565
ades	-3566
adro	-3567
ails	-3568
alle	-3569
anta	-3570
arma	-3571
auss	-3572
bing	-3573
htra	-3574
icks	-3575
iful	-3576
ival	-3577
lish	-3578
odes	-3579
over	-3580
then	-3581
ulch	-3582
umbs	-3583
used	-3584
▁"""	-3585
▁DNA	-3586
▁Doc	-3587
▁Ent	-3588
▁Imp	-3589
▁Sil	-3590
▁Sun	-3591
▁Try	-3592
▁bad	-3593
▁fab	-3594
▁gir	-3595
▁lif	-3596
▁mix	-3597
▁net	-3598
▁tou	-3599
cribe	-3600
ember	-3601
field	-3602
gmail	-3603
icked	-3604
ifier	-3605
imize	-3606
itive	-3607
ivity	-3608
oseph	-3609
otten	-3610
rency	-3611
riate	-3612
rowse	-3613
uddhi	-3614
▁Dele	-3615
▁Fold	-3616
▁Gita	-3617
▁Give	-3618
▁Home	-3619
▁Jour	-3620
▁Juda	-3621
▁Lamb	-3622
▁Like	-3623
▁MARC	-3624
▁Sync	-3625
▁Vajr	-3626
▁abst	-3627
▁capt	-3628
▁comb	-3629
▁door	-3630
▁doth	-3631
▁easy	-3632
▁fact	-3633
▁gods	-3634
▁gold	-3635
▁hang	-3636
▁hope	-3637
▁lock	-3638
▁lust	-3639
▁node	-3640
▁obey	-3641
▁port	-3642
▁safe	-3643
▁simp	-3644
▁subt	-3645
▁tabs	-3646
▁tags	-3647
▁trou	-3648
Behold	-3649
Having	-3650
adient	-3651
father	-3652
ogadro	-3653
overed	-3654
ribute	-3655
ructed	-3656
utions	-3657
▁Array	-3658
▁Hence	-3659
▁Level	-3660
▁Maths	-3661
▁MySQL	-3662
▁Other	-3663
▁Purch	-3664
▁Right	-3665
▁Since	-3666
▁Water	-3667
▁Where	-3668
▁abund	-3669
▁achie	-3670
▁alert	-3671
▁along	-3672
▁beaut	-3673
▁bless	-3674
▁chant	-3675
▁curve	-3676
▁defin	-3677
▁entry	-3678
▁exhib	-3679
▁fists	-3680
▁hydro	-3681
▁kings	-3682
▁lungs	-3683
▁maint	-3684
▁mercy	-3685
▁outer	-3686
▁overr	-3687
▁relig	-3688
▁sanct	-3689
▁sharp	-3690
▁stops	-3691
▁trunk	-3692
▁unbel	-3693
▁uncle	-3694
aussian	-3695
ibility	-3696
ignment	-3697
riangle	-3698
▁Apache	-3699
▁Browse	-3700
▁Double	-3701
▁Inside	-3702
▁Joseph	-3703
▁Master	-3704
▁Option	-3705
▁Patron	-3706
▁Server	-3707
▁Verily	-3708
▁applet	-3709
▁approp	-3710
▁belong	-3711
▁consid	-3712
▁cooked	-3713
▁devils	-3714
▁elders	-3715
▁expand	-3716
▁fabric	-3717
▁famous	-3718
▁forget	-3719
▁giving	-3720
▁height	-3721
▁joints	-3722
▁looked	-3723
▁master	-3724
▁medium	-3725
▁memory	-3726
▁modify	-3727
▁organs	-3728
▁period	-3729
▁prayer	-3730
▁printf	-3731
▁served	-3732
▁speech	-3733
▁stream	-3734
▁syntax	-3735
▁thighs	-3736
▁unique	-3737
▁wicked	-3738
arashtra	-3739
hematics	-3740
imension	-3741
▁Another	-3742
▁Compile	-3743
▁Content	-3744
▁Install	-3745
▁Mission	-3746
▁Profile	-3747
▁Vyayama	-3748
▁capital	-3749
▁clothes	-3750
▁condemn	-3751
▁discipl	-3752
▁editing	-3753
▁explore	-3754
▁extreme	-3755
▁finally	-3756
▁insects	-3757
▁parable	-3758
▁players	-3759
▁println	-3760
▁protein	-3761
▁relaxed	-3762
▁sepulch	-3763
▁sharpen	-3764
▁sliders	-3765
▁started	-3766
▁upwards	-3767
▁windows	-3768
aturation	-3769
istration	-3770
ultaneous	-3771
▁Checkout	-3772
▁Projects	-3773
▁Synaptic	-3774
▁Tadasana	-3775
▁absorbed	-3776
▁addition	-3777
▁anything	-3778
▁apostles	-3779
▁baptized	-3780
▁contents	-3781
▁directly	-3782
▁division	-3783
▁gathered	-3784
▁included	-3785
▁location	-3786
▁organism	-3787
▁patterns	-3788
▁physical	-3789
▁postures	-3790
▁printing	-3791
▁prompted	-3792
▁revealed	-3793
▁rotation	-3794
▁specific	-3795
▁standard	-3796
▁strength	-3797
▁teachers	-3798
▁treasure	-3799
▁universe	-3800
▁basically	-3801
▁dashboard	-3802
▁direction	-3803
▁essential	-3804
▁qualities	-3805
▁directions	-3806
▁relaxation	-3807
▁scriptures	-3808
▁summarizes	-3809
▁appropriate	-3810
▁initialized	-3811
▁requirement	-3812
▁straightway	-3813
▁resurrection	-3814
▁manifestation	-3815
)"	-3816
1,	-3817
22	-3818
5,	-3819
Ch	-3820
DB	-3821
DK	-3822
EG	-3823
GB	-3824
ID	-3825
Ne	-3826
OT	-3827
Of	-3828
ev	-3829
gi	-3830
no	-3831
sl	-3832
wd	-3833
▁अ	-3834
TRL	-3835
akt	-3836
ani	-3837
bre	-3838
ils	-3839
ksh	-3840
lor	-3841
net	-3842
odh	-3843
oot	-3844
▁	-3845
e	-3846
t	-3847
a	-3848
o	-3849
n	-3850
i	-3851
s	-3852
h	-3853
r	-3854
l	-3855
d	-3856
u	-3857
c	-3858
m	-3859
w	-3860
f	-3861
.	-3862
p	-3863
g	-3864
y	-3865
b	-3866
,	-3867
v	-3868
"	-3869
k	-3870
T	-3871
I	-3872
S	-3873
A	-3874
x	-3875
C	-3876
:	-3877
N	-3878
W	-3879
B	-3880
L	-3881
P	-3882
M	-3883
F	-3884
-	-3885
G	-3886
H	-3887
E	-3888
D	-3889
'	-3890
j	-3891
O	-3892
R	-3893
1	-3894
q	-3895
;	-3896
J	-3897
Y	-3898
0	-3899
?	-3900
2	-3901
K	-3902
z	-3903
)	-3904
(	-3905
U	-3906
V	-3907
’	-3908
3	-3909
/	-3910
4	-3911
5	-3912
+	-3913
“	-3914
”	-3915
_	-3916
6	-3917
7	-3918
‘	-3919
्	-3920
X	-3921
•	-3922
9	-3923
!	-3924
8	-3925
ा	-3926
Q	-3927
त	-3928
क	-3929
ि	-3930
>	-3931
र	-3932
á	-3933
ं	-3934
प	-3935
य	-3936
=	-3937
–	-3938
ः	-3939
व	-3940
स	-3941
%	-3942
Z	-3943
&	-3944
\	-3945
।	-3946
न	-3947
@	-3948
*	-3949
ण	-3950
[	-3951
]	-3952
म	-3953
ल	-3954
े	-3955
ृ	-3956
ी	-3957
ो	-3958
द	-3959
भ	-3960
ष	-3961
ु	-3962
अ	-3963
श	-3964
#	-3965
ग	-3966
ज	-3967
ह	-3968
थ	-3969
ू	-3970
—	-3971
$	-3972
{	-3973
आ	-3974
च	-3975
ब	-3976
ठ	-3977
ध	-3978
फ	-3979
}	-3980
ã	-3981
ä	-3982
ü	-3983
उ	-3984
ख	-3985
ञ	-3986
<	-3987
~	-3988
Á	-3989
â	-3990
è	-3991
इ	-3992
छ	-3993
ट	-3994
ऽ	-3995
